10110001100001
1010000001011110
10110100101000
10110101101010
1010101000111100
10101001100101
1011000100010010
10110010011011
10111111010010
1010010011111010
1010100101111011
1001110111001001
10100110010011
1001110001010111
1010110111001111
1011000101011100
10000111100100
1011001000110100
10100110010100
1010011010011011
1101101011011
1001111010000010
1010110010111101
10011101101011
10101011100110
1011001100111110
1010111111000100
10110111100000
1010101100101000
10111010101011
1010100110111111
10100011111100
1010010101110111
10101110001111
10010111001111
1010011010001010
10100110011001
10111110011101
1110100010100
10100100110101
10100001011111
1010011001000111
1010011111110110
1010111111110111
1010110110010100
1001111111011100
1010100000111101
1010111000100111
1010101110100110
10110010011110
1011000001000100
1010000100100000
1010100010000110
10010000111100
11001001111100
1010100111110111
10101101101101
1101010011000
1110011100111
1010000101011110
1000101010110101
10111001011001
10010110000011
1011000001000000
1010101110101111
10010010101011
1010111110011110
1010011000011100
1010110010110111
1001100100001001
1001110011100111
10010101101011
10010111111010
10000100110001
1010100011110000
10101111000010
1010101110000010
1010101111101000
10101011000000
10000000000101
1010011011011110
10000100000101
1010110010000100
1010010101111001
1010110110100111
1010010111110111
1010000011000011
1010110010110110
1010010011001011
10100101101010
10010011101010
10001111110101
1010001010110010
10100001011001
10100011100101
10000101110010
1011001000101011
1010010000001101
1010100011010111
1010100011111000
10111111000100
1010101000000111
1001111110100111
1010110101001000
1010101010100100
1010111011101010
1010011110101010
1011010001001010
1010100111101000
1010110101101000
1010011000000010
1010110001011110
1010001011001101
1010100110110000
1010111110001111
1010010110011110
1101111110010
10111111000100
10100010101100
1010011111000100
1010111110110101
1010110100001000
1010100111000011
10010101010011
10000100000110
1001010000011101
1010000101110000
10010101111110
1010010101111010
10100000100011
1010110001100011
1010110001001000
1010011011110101
1010001111101000
1010001000010101
1010100100001101
1010001000110111
1100101001100
1011010001101100
1010011001001011
10100000001100
10100010111000
1010111110100000
10100010011000
10000111011111
1010011110110110
1010100101110101
1010010111010110
10011001111010
1010110001110011
10101000010110
1010001000101001
1010000100011011
1010101010100101
1010001101010100
1010110110010101
10100010010110
10110010111010
10000111101011
1110101111000
1001110001011011
10000101111000
11000000100011
1010100011000001
10110010100111
1010100001010011
10110000101010
10101100111100
1001110000100001
1010110000001011
1010100101100110
1010011111001111
1010110011001101
10100001001000
10100101110001
10010001100100
1010111100110100
10101101100010
1010100110010100
1010110110100001
1010101101111010
1010101011001000
1010000001000010
10111011111000
10100000001111
1010110111111000
10111100111010
1010110010000111
1010001010111010
10011001101101
10010001000010
1010000100110101
11010100000010
10110001110110
10101111011010
1011010011111100
1010100011001111
10111101010110
11010000110000
10110000111011
10011110101011
1010000101001001
1010100010011000
10110000101111
1000111101100011
11010010101000
10101011101110
10110010100111
1011000011011001
1010111001110001
10110000011101
1011000110110000
1001010010100001
1010111001111110
1010101011101100
1010110010011101
1010010101011101
11000011101010
1011001011111001
10111001000100
1011000010101000
11000001001010
1010101011101000
10010100110101
1001011101001011
1010111100010111
1010101111111001
1010000010000011
1010110011000011
1010110011101101
1010110010101100
1010100000001011
1010110011110000
1010100000000101
1010100010110000
1010011100101110
1111000011100
1010110100010001
1010010011001001
10111100000010
1010110010110001
1010001001011010
1010110010101110
1010100010101111
1001010110011111
1010110110111011
10110101111101
1010100111100100
1010100110001010
11000011100
10100001101010
10100010000101
1010010100001010
1011000100110101
1000100110010101
10110010011001
1110010100001
1010000111100110
1010100111011101
10010010110111
1010101100010111
1010010111101010
1010001011010001
10000110111011
1010010010100010
1001110011000010
1010001110100110
1010110000011111
10100010100101
10100011010110
10111011100101
10011011110000
1111111001100
10100010110010
1010100000011110
1010011100011001
10101101111011
1111000101111
10100001010001
1010011110001101
1111010000000
1010100000110111
10000100100001
1011110100110
1010000110011011
10011101000100
1010011111011101
1010100111001001
1011000001000110
1010101101110001
10011010001010
1001101111100110
1011010011000011
1010101000110000
1011000100011010
1010110110100010
10100010100001
1010110010010011
1011000011111001
1010100100100101
110010011001
1010111000011110
1010011110100011
1010001010011110
1011000000100001
10100010000101
1001101001111001
1011000101111101
1111010111110
1011001110110111
1010100000101001
10111001101100
1010111010001110
1010101100110111
1010100011011011
10101001000001
1110100010011
10100011101000
10100000000101
1010100010000100
10111111110101
10110101101111
10100101111010
10001111010100
1010100111001110
10110110110010
1011000001100000
11000110010110
10110000111000
10100011110010
1010101010011001
1011000000001010
10101000001001
1010100010100111
10010111001100
10100111000101
1010100010111011
10111011000001
1010100101010011
1001110110100100
10010111011001
1010111100111011
1011000010110000
10011101010100
1010110111011110
11000110100001
1011010100010011
1010111110001111
1011000110010001
10111011101100
11000000111110
11000001100000
1010110011011101
1010110101010100
10011011001101
1010001011101011
1010010001010000
1010100011111100
1010100001110100
1010100001110101
1010100011111100
1010000011100011
1001100000000001
1010101011000011
1010011110001011
10011000110111
1010100101101111
11000110000101
1010101101110100
10110000100000
1010001111111101
1010010111110101
1010011011111000
1010101100000000
10001100100011
10001111000011
1010101101101000
1010100011111101
10100000010101
10001000011000
11001010001011
1010110011001010
1011001010101011
10110001010010
1010011000101111
10100011111101
11001101110111
1010011100011001
1011010101010011
1010100010011110
1010001101100011
10110011010011
1010101000101001
1010010011010100
10000010110111
11000011100001
1010100101110010
1010010010110111
1010100000111000
10110101001111
1010001001000001
1010111001101001
11010100010101
10110100000111
1010101000100011
1010101010100000
1001110000110010
1011010011011010
1000010111010
1011000001010111
1010110011101110
10010111111010
10100110001101
1010111001100110
10110000001110
10011111101001
10011000011100
1010010101011101
10110001011000
10110011100111
1001110000110000
10000000011000
1010110010000010
1010011110011011
10101011000011
1010100101101100
10101101000101
1010000001001010
1010110001101000
1010101101001001
1010110011000111
1010101001100000
10111111111111
10100011001111
1010001001100011
10101101000000
1111111100011
10010111100100
1010100110100011
1110011010010
1010100010100011
1010011111011010
10011100001110
10001000100000
1010101011101100
1001010110000011
10100111101111
10010101011010
1010111000100011
1011010111110001
10111001001100
1010011010100011
1011000110001110
10011011110111
1010011001101101
10001001101110
1010101101110111
10111110011011
1111110100011
1010110010000010
1010100010001010
1010110001000100
1010111101110001
1100001100111
1011010001101000
1010100001000110
1010011100101001
1010110011010101
1010101100010110
1011000111011101
1010111011101010
1010110001001010
1011011110100000
11000000101010
11000001101101
1010100011110100
1011001010000100
11000101110110
1010100001100101
1011000101101111
1010111001111000
1010011111110100
1010110001011111
10101110111010
1010110010010110
10110010111101
10101101011101
1011010001010100
10000101101001
1010100010000011
1011000110000110
1001111001111000
1100001111011
1010111000000111
1101100001100
11010011011001
10100001110011
1010000001101100
10110111000000
1010111001100111
10010101001101
1011001001010110
10101111111100
10100000100101
10000110101111
1010101011110010
1010000000100101
1010001011100100
10001010001001
10000110111001
10110101010100
1010110110001011
1010011001011100
10100100100100
1011000110101000
1010000011110100
10100101100110
10111010110101
10101010100010
1001101101000000
1010110100010000
1001110010100110
10101111011111
10010111101101
1010010100001100
1010100101101100
1010101000001000
1001111001010101
10101011110100
1010000000111001
10100110100100
1010000001010100
1010110001010000
1010011110001111
10101010000110
1010110101110010
10010110110001
1010101011000011
10010100101110
1010111101000001
1010101011100111
1010110110000110
1010011100111111
10110001001101
10010001111101
1010010001110101
1010111010110001
10110011010010
1010101011010101
1010010100111101
1011000111000001
10110101100001
10101100110101
1011001000110011
1010110010000101
1010110111000000
1001100110010110
1010100100101110
10100110111110
10011111101100
10101100110011
10101010011100
1010000111110111
1010110110101001
10101101110110
10101110010000
10010100001100
11000110101000
10110100010111
1010110100001011
11001110010000
1010100000100111
10010000101111
1111111111110
10010110100110
1110000011001
1010100100100101
10011110011011
1010100100001100
1010100000101001
1010100100010001
1010101010110011
1010101111101011
1101011111010
1010011110001011
10001111111001
1011001001100111
1010101011001110
1100001110101
1010101011011101
1010001001111100
10101011101000
1010000111101110
1111010110101
1010111000000100
10001010010010
1010010110111110
1010101010011111
10011110000001
1111110110000
1010100001000001
1110111101000
1010110000111110
1010110001100101
10011111101111
10100100100101
10100100000110
10110010000010
1010100001011000
1010100100000101
1011100010000
1001111010001111
10011010011111
1010110011000001
1010110010100100
1010001101111000
1010010011110000
10010011010011
1010111110101110
1010100010111001
1001101011010
10100000110000
1010011101011010
1010010001001110
11001011000111
11001000011000
1010101111111110
10110101111101
1011000111011011
1010100000100000
1011111100011
1010110000100100
1010110100111111
1010110101011100
1010111001010010
1010101001000010
1010010001011001
1010100011110010
1001110110110110
1010100110110111
11000000010010
1010110101010100
10001110111011
1010110011101000
1111000100000
1010110011111001
1010100111000000
1010110001110101
10010000001100
10100111101111
10010000010111
1010110101100011
1001111011101010
1010110010000101
10000001100010
1010110111110010
1010101100111000
10100100001111
1010010101010000
1010101100110101
1010110010001001
11000010010100
1010111011001001
1010100110001101
10110001000111
1010100111110000
1010101101110001
1010001000001101
1010111011100010
1010000010101100
1010001011010011
1010100011000000
1010101100111100
11000000101000
1010011101100001
10011011100111
10110111010010
1010011010010000
1010101111100110
1010101111101001
10100101011110
10100111101101
10101000101001
1001111011001011
10110011111100
1010110101101011
10111011010001
1010110011000010
1010000110011100
10100111001010
10110111110001
10110101100100
1010100011111110
10100100011111
1010011000100100
10101010110101
1110010000100
1010001000001011
10100101110001
1010100000010001
1010000001011011
11000001010101
10010011000110
1010111101011010
1011001010011101
1011010001111011
11010010000001
10101100011100
11001010100000
10010010110010
10100101000000
1011000001010010
11000110000011
1011010001010010
10110011101011
1010100111000000
1010100011110100
1010111011011111
1010001010001101
1011001010000010
1011001111000100
1011010000010000
10110101111011
1011001011101111
1011011110110
1011000011001011
1010111000010111
1010001110101101
10111110111011
1010111010010100
10110010011101
11000000011010
1011000010100010
11010111011011
1010000100101000
1010101101100101
1010110000111101
1010111100001111
1010110110111000
10100010100111
1010110111011000
1010111101101111
1010100000101101
1010110010010110
1101010110100
10110110010110
1011000010011111
1010101010001001
1011001111010101
1010110010011010
11010000101001
10110100101111
1010001011100100
1010001111101110
1010000111000110
1010110110101111
10100011111110
1011000001101111
11001101111010
1011000000100001
1010111011110100
1001110101110111
10110011011100
10110000101100
1010111011100001
1010110011100010
1010101011011011
1101010110001
10100001010001
1010110101011011
1010100010100001
1010101001010001
1010110010000000
10101000001000
1000010001000
1001101110101010
1001101011001101
11000000010011
1001111110000011
10111010011100
10100000011011
1010011000001011
10110001101111
1010010100100110
1010110000000111
1010010101110100
1010001110001000
101100101010
10110011111101
10001000110100
1010000000101110
10101101001110
1010011011000111
1010110100100011
1110101101001
10100011101111
1010101011110110
10110111000110
1001111001001001
1010010101000000
1011001010001000
1010110111000011
10111111111100
10111000100110
1010001001010100
1110001100110
1010001110010110
1011000101100110
1110111000001
1010100010011111
1010001101010110
10100110000111
10101101101101
1010001101100101
1011010111111
1001110011011101
10010000000100
1000101111000100
10110011111101
1010000100100110
1100001100011
1010010000010010
1001111010011100
10101001000011
1010000101111101
10010100111111
10100010101101
1010011000110011
1110110110100
10100000101001
1010000111010011
11000100011101
1010100111000100
10011100101010
1010100010001100
1011000001100111
10101011111101
1001110101100110
1010111001001100
1010001111011011
10110100001000
1010101011011101
1001010100011011
10110011110001
1010100000101010
1010100011000100
1010111101011100
1010001000110001
10100101110111
10100111001101
1110100011100
1010111110111001
1001111101010100
1010101111001110
1010100110110100
1010100010011100
10011000001101
10101101011111
10001110000100
10110011111110
1001110011000110
10101111101000
1010100111101110
10011001100101
10100000010010
1010011001111101
1010010110111010
10000001000011
10100000010001
10111101010001
1010100001110100
10111010110110
1010100101011001
10010011011100
10100101111111
1011000000011
1010010000100010
10001011111011
1010110010011001
1010111001001010
10001111100100
10000100110011
1010010100000010
1001111111110101
10001011101011
1010101000001100
1010111000100110
1010010110100110
1010101011000110
11001100011010
1010011000111001
10101011100111
10011110110011
10000010111101
1010011011001100
1010110010010001
1010010100001101
1010110100110101
10110000100000
10110011111010
10100000110101
1010100101001001
11000010111100
1010110011110100
1011001000100000
10011001001101
10011111110010
11001111110110
1001110000100011
1010011110011000
1010011101110100
1110011000011
10101111101110
1010111101100010
10001110001100
10100010110101
1000001101010101
1010110100001010
10111101101011
1010110001110111
1101010100000
1010101110110010
11010010001000
10011111101011
11000100110110
1010001010101010
1010000111001110
1011000000000010
1001110000000101
10000111101011
1111001101001
10101001011100
1010010000100111
10011001101111
1010001011000010
1010010100110101
1010001110000110
1010100000100001
10010001000100
1010100000010001
10110001100001
1010100001010100
1010010101111011
10111011000001
1110110000010
1010110000000000
1010110111000000
1010011001010110
1010000101001000
1101000110001
10111001011101
10101011110001
10110000100010
1001111011001111
1110110001011
1001111100011010
1011000111000100
1010110000100101
11001010111111
10100011100110
1011010010111000
1010110100101110
10101101110101
1010001011111100
1010101110011110
11000000111001
1010010011011001
10111110000001
1111110101110
10100010010101
10101011101111
1010110001110001
1010111101000000
1010110001111111
1010100101101011
1010110000011001
1100000111100
1010010001111100
1010000000110001
1010010111111011
1010100101011010
1010111110100111
10001000101100
1010110101100000
10101101110100
10101111010000
1001001001000
11010000111101
1011000010110111
11001000110011
10100010110111
10101010101110
1010111001011001
1010100101111011
1010000001010110
1010100111010110
10100010100011
1010000010100101
10101000111001
10110000111100
10010111001000
1011001101100000
1010010010010000
1001111100111100
1011000110011011
1010001111100100
1010101010010000
10101001010100
1011101000100
1010010010110101
1010100101010111
10010010100110
10110100000111
10100100111011
10111011000110
11001111101000
1010110111000011
1010111000111001
10001011000110
1010101011011101
1010001001011111
10110010100110
1010100101010001
1010101011101110
1010101001111001
10011100001111
11000000111000
10101100111011
1011000110010000
11001000011011
1010100101001011
1010110110001110
1010101011001011
1001100110010000
1001110100011101
1010000110011100
10101111011111
1010111100010111
1010101001110111
10010111100010
10011100010010
1010001000011010
10111100101011
1010101011000100
1010100011111101
1010100110011110
10001000111101
1011001101110001
1010000111011001
1001011100100101
1001010011101101
1010101101101101
1001100111110101
1010111011000001
10110000101001
10100101110010
1010100110001110
1010000110100010
1011000111101110
10111011011011
1010100010111010
1010011011101111
1111000001011
1010101101010000
10100011101001
11001000001100
1010110010100111
1010100101100100
10100010110010
1010100110110011
1010101100011010
1010111010001001
1010111010000111
10101110000001
1010110011100001
1010110000101011
1010101111001011
1010001100111101
10101110010101
1011001000100101
1000000100001
10000010111110
10100001000110
10010000001100
1001100110011110
10011001
10011111100101
1010010000000010
1010101101100110
1011000010011110
1110000111000
11000011100011
1010001010010001
10101100000011
1010110001010110
1010100100101000
1001110001111101
10110000111000
1010000110011111
1010011110001100
1010100111010000
10111110000000
1010011100110111
10110101011000
1011000000100010
11000001000001
10100100010110
11001000001011
1010110001111011
10111110100111
1010011010100001
1010010100101011
1010001100110001
10001010110111
10110001110001
1010101101011001
1010110010000111
10110010111011
1011000010100010
1010111100101001
1101011010001
10110110011011
10100101111111
10011111000011
10010001000000
1011000101000111
10101001101001
1010111100000100
10110100100100
1010011110111000
1010110000001000
1010101000001111
10100001100101
1111001100110
1010101110100111
1001011111101011
1010010100000100
1001011010011
10110100000010
1010100001011100
1010100000001001
10010100101110
1010010010100101
10011111101011
1010010010110111
10001010011011
1010010010100101
10010111101110
10011111100011
11000001110101
10010111011001
1011000000111110
1010100101000110
1010110101100000
1011011011100000
1010101000101111
11010000010100
10101011000111
10011010010001
1010011101010111
10110011010111
1010011010001001
1010011100010101
1011000100011100
10100011010101
1010111000010000
10001101100011
1010101100010111
1010010111111110
10110101011010
1011011000100011
1010111001110101
10100010010100
1010011110001000
1010111000000001
11010000111001
1010011010111111
10111000101011
10111010000001
1010110100010110
1010110000100101
1111110110010
1010110011011001
10101000101111
1010011011111110
1001110111000001
1010111100110010
1010010111111110
1001010001111110
1010111000011100
10010100111110
1001000111010101
1010001010010001
1010110100000110
1100000101100
10100001110110
1011110101111
1010100010111100
10111010011110
10101100110110
1010111010010001
10011111100100
10001110101011
1010000100011001
10001011100011
1010100000001001
10111001000111
1010000001011101
1010000111100001
1010110100100001
1110010110000
1010001011110101
1010010011110101
1010011000011101
10000101011100
1011101111110
1010010110000101
1010100000110010
1001110101010001
1010110011100111
10010110010111
1010010111101111
1010111000001011
1111100111111
11000101111001
1011010111101111
1010101010000001
10111100001111
1010001111111010
1011000000011011
10011110110101
1011010101100001
1011000011110011
1010000001111010
1010010111011110
1011010010100010
10011100110101
10101000010110
1011010000001110
1011000011000101
10111101011101
1010110011110111
1001101000111100
10100100001100
1011001111001110
10111001111010
1010101001101011
1010010000111110
1010111000010010
11000111101101
1010110110110000
1010111111101111
10101100111111
10110010010111
1010111001111100
1010111000011011
1001100001001001
1010110001001101
1110011111011
10010100010011
10101100001010
1010110001011000
10111011000100
10100101101011
1010100011110111
1010100111101111
10001110000011
10110000111110
10010000011100
1010011010101001
11000101110011
10101110111111
10100000101100
10101001111100
10010011000000
1001100010110101
1010010101101010
1010100101000010
10111010100011
10111001111101
1010110110100100
10011110101011
1010101010101111
1010101111101000
1010011100010011
1001101111111100
1010111011010011
11001000011000
10011010111001
1010111011010100
1001111010101100
11000000100111
11000101111101
1010001111000010
10100011001100
1010111000010110
1010011000100010
1011000000111111
1010111110101010
1011000101010011
1010100110111100
1010111110010000
1011000000110001
1010101011100010
1010110101000110
10011010010001
10010000010001
1010011111100100
1010111001110001
10101110101000
1010010100101110
10110111001100
10011100001101
1011001001010011
1010010110110001
1010111111110001
11010001101001
10101100001010
1010111010100111
1010101100010100
1010111010000010
1010111011011010
10110000101001
10110100111011
11000110010011
1011010011001100
10110101011101
10111100011101
1010010000111101
10111001111000
1010110111011010
1001111110011000
10001101101011
1011010110110001
10111000011000
1010111111010000
1011010100101001
1010110110001101
1010001111010001
10100000000111
10011110011101
1001100001011111
1010010101100011
11001001110010
1010011010110111
10100111110010
1010101001011111
1001011011010001
10000010110110
10110110000111
1010001101110110
10110001100111
1010110100101100
10110001011010
10010011000001
10111010111110
1010100001000011
1100111001111
1010111010001100
10011001111100
10101000001100
10001111100001
1011000101111000
1110001010101
1010110100100110
1010111010011110
1010010000101001
10110110010001
1010010011111101
1010110000101000
1010111000111110
10011001101110
10110000110110
10101111100111
1010010101111111
10100001001001
1001110111001110
1010101100000100
10110100100111
10010111101110
10111110110100
1010101010010111
10101011110011
11001011100101
1010010000011011
1010100100010101
10110000011011
1010110010001110
10101001011111
10100100110011
10100011001000
1011001010000000
1010001100100001
1010010101101111
1010111001111111
1010010000001010
10001100011101
10010110000010
1011000111011101
1010001001111100
10111011101000
1001100110100111
1001110001010011
1010111101010010
10101011010100
11000100100000
1010001011100001
10100010101110
1011000010000010
10010011100100
1010110110100101
11001101111101
1010100011101001
1010100111000101
1010100011000110
1010101101001100
10111001010010
1010100000110001
10101101010100
10100101000010
10110111001101
1011010010100011
1010100010011100
1010100111001011
10110000110110
10001001000110
1111001000000
10110101011101
1010100011101101
1010101110100101
10010000000111
10110011111111
10110101111100
1011000110111010
1010100110111101
10001010110000
10100100111001
10111001101010
10110100010111
1010000001100010
1010110000001000
10110011001101
10011000000110
1100111100001
1010011001011011
10101010101001
1010100001111000
1010011100011101
1010110110100111
1010110110100000
1010011000101111
10111111000100
1010101110101101
10100100101001
10011101001101
1010111110100111
10100100101100
1010011011011
10010111011000
1010010010100110
10110010011100
1010001010100010
1111001010110
1001110101110101
1010010100110110
1010100111000010
1010110001010111
10100101011110
1010101110111001
10010101010000
10000001010001
1010110111011000
1011000011011000
1101111101001
11001000110010
1010011100010100
1011010011001101
11010000011101
10111111010010
1001110100011010
11000010110001
10101001011011
1010000101011001
10011000000000
1010010011111111
1010011100111001
1010001001000000
10010010001011
10110110010010
1010111000110110
1011011010001110
1010100110000110
10110010101110
1010101010101001
10000000110101
11010010001011
10100111101000
10110111100000
10110000000110
1010110001010010
1010111010000100
1010111000100101
1010101000101101
1010101111011100
1010010111010001
1101101011000
1011000111110011
1010110101100001
1010010100000100
10010010010110
10000100110010
1010011100001110
10110011001011
1011000010111110
1010010100111101
1010101101010100
10110011010100
10010100010110
1010001010101001
10110010001111
1011000000001000
1010100100010110
1010010100010110
1010110000010110
10110000001100
10000000010110
10111000011010
10101101110111
1010100010000011
1010100001001011
1001101001001100
1010011000110110
10010101111100
1001000001101
1010010111001001
1010110100011011
10101101101111
1010101010010111
1010110000010100
10111111110010
1010110000010010
10110110110001
1010001101000110
1011000011011110
10001101110010
10001000011110
10101010101010
10100000110110
11000101010101
10100101001001
1001111001100111
10010101110000
10000000001100
10111111000011
1010100100110000
1010100000110111
1010010110111010
1010110000001110
10100110000011
1010100101110010
1010101000001111
100010111011
10100000011000
1010010000100010
10101100011111
1001101011001001
1010011111000101
11000010110100
1010110111111100
1010000000010101
1011001111001010
1010011010010100
1010101100100001
1010101010100010
11000010111001
1001001111111100
1011000010110100
1111111011000
1010101110001110
1010111111100011
11000000010111
1011000110010011
1010110001011001
1010100111101011
1011001001100011
1011010111011001
1010101010001010
1011010000001010
10010011010111
1010011101011000
1010011010100010
1010110101010011
10011011111010
1000011011001001
11010000010011
1010110000111011
1010100011101100
1010101001001111
1110101101110
10101010111110
1101110100001
1110100100001
1001100111011000
1010111100111001
10001110111101
10111000111000
10100010000100
1010101010110101
1010010000110011
1010100100011000
10010101011111
1010100100011101
10110011011101
1011001110100101
10110010110000
1011001001010000
10101100010000
10100011110000
10100000111100
1011010000111101
10011000110101
1010110001000010
10111000000010
10010110010101
1010101010111000
1010111000011000
1001101110100001
1001100100001000
10101101000000
10110111110011
10110001110011
10100011101000
1010101011110110
10011011100011
10100011110010
10010111011000
1010011011110100
11001001010011
1001101111000101
1010110110010110
10001101011000
1010001101011101
10100110111011
1001011001101011
110010101111
1010010101011111
1001110001011011
1010100100110110
10000111101011
1010101000011111
1011000011100111
10010101001111
10000111100100
10100000010000
11000011001010
10101101100011
10011011000101
1001110100110100
1001110011010011
1010000001100000
1010100110011111
10000101111001
10100000100010
1010100001000100
10000111111000
1010001011101101
1011001000110011
1011111110000
1010110001010010
1011000101011111
10100101111111
1001101010011011
1010010110011010
10010011101101
1111101001111
1000011011000000
10001110010001
10101010111101
1010110110000001
1001110110010101
1010011110001011
10000000000010
1010001101111111
10100101011001
10100101000000
10001110001100
10110111110110
1010111110111110
1010000111011010
1010101010010000
1010110001100011
1010100101111000
11001001111000
1010110110011111
1010110011001011
10001000011000
10010110000001
10100011011010
11000101111010
1010111000001111
1010110111000111
1010100101110000
1011010001111011
1010000000101100
10100000100010
11001111000010
1010110110100101
1010100101111101
10100111010010
10100110111011
1010110001111110
1110101010101
11001000001001
1010100010101001
10010011111010
1011010010110101
10101010001010
10101100000101
1011000100001010
1011000010000101
1010100110001000
1010001011100110
11001111101001
1011000111000011
1010100001011100
1010110000010101
10101010000011
1010000101110111
1011001010111100
1010000010011000
10110111010111
10010110011111
1010110110001010
10111100011101
10001010110110
1010011100101001
1011000100101000
1010100110100110
1010100011110111
10101101100111
1010110111011001
1010011010010001
1010110111000110
10011000100000
1010110110011001
11010011111100
1010010101000001
10010011010100
1010101110110010
1010010101100100
10011111010011
10001000000100
1010100101111010
10100110110110
10000110111010
10001011010010
10100111100101
10110001001111
10110011011000
10100000100111
1010011001100011
1011000001000110
1010011110010010
1010101011100111
10100011110101
1010110011001011
10001010101100
10110111010010
10110111010110
1010001011010001
10111111111001
1010100001001011
1010011101100110
1110101101111
1010010100110111
11000101110000
10011001011101
1010011110010101
10011000000111
10110011110111
1010100100001110
10000001000001
10110100100100
1010000100111001
10001111101111
10010001011011
10010110001000
1010111000010010
1100000000011
1010111000111110
1010100001001111
10111111010100
1010100000111101
10001010101000
1000100001001000
1010011011001000
10001010100100
10010111101111
1010010010111101
1010101100010111
1001110100001111
1100010010110
10010000111111
1010010100100011
1010000001110001
1010000010001110
10110011110000
1010001111101011
10001001100100
10010001110110
10100000000100
1010011100001011
10100001100110
1010101011110010
1010011111011111
10010101011000
1010100000110000
10011001000110
10000100000110
10100010110111
1010100000011100
10101011001101
1010100111010010
1001011010111001
1010010101110111
1010011001100001
10100001100001
1001110001110011
1010011110111110
10001011100000
10110011010111
10111110001011
10011010010101
10101000110011
1011001001100110
10110111011111
1010001100111110
1011001001101010
1010000000010010
1010011110101101
11000000010001
1010110110101110
10011010000001
10101110100011
1011010110001110
1010100101000101
1010111000100100
1001011011111010
1010101110111001
1010011010111011
10101111101101
1010101110001000
1010100001000101
10010000000101
1010101010011010
1010100001000011
1001111001110101
1010100110010001
1010010101101101
1010011011010111
1010010110011001
10101101111000
10010011000001
10100110011110
10011000011011
10110001011000
10110010110110
10110001001001
10010010100111
10000001001111
1010111000010101
1010001110011101
1010000101001010
1010101110111111
1010010110110010
1010100101101101
1011000111000010
1010100000111110
10101110001001
1010001111010101
1010000110111000
1001001110111111
1001010100110010
10100010100101
1010000001111111
10111111000101
1100111001000
1010000010011100
10111010001000
1001110011111001
10010011011100
10000111001111
10110100110001
10010011100000
10010100000111
1010110111111010
1001111100101000
1010010100110101
10110110000100
1001000000110100
10100000100010
10001110110010
1010010101111001
10000111001111
10100100000101
1010000101111010
10010100010001
10110100110010
1010010000001001
10110011110001
10110100100100
10010000111011
10101001001001
1010100100110110
1101010100100
1001110110011110
1010011011001100
1010100110001001
1010001101101
10000101010000
1010110011001011
1010110000011000
11000001011100
10000011010110
1010111011111100
10011110001110
1001001010111110
1001110100010100
10111000011011
10100110000111
10011101001011
10000011010101
10111101100000
1010010101010000
10110000011101
1010111110001000
10010000011110
11001001010101
10100111101110
1010110010001100
10110111001000
1010110000011010
10010001000101
1010111001111010
1010110000001101
10100010011101
10111011011101
10101001110110
1010011111101000
1011000011011110
1010010011010001
1010111100110010
10110100101010
1010100101100001
1001110111000101
10110111000000
10001000111000
10100111011010
10011001011100
1011000111111000
1010111010011001
1010010110110000
1110001001100
1010001100111010
1010100110101111
1000001110001
1010001000011110
10100010111100
10101001100000
1010100111110111
10111100100110
10001100011010
1010010101101110
10100000010010
10111011011011
1010110101100100
1010010011001101
1010000000010110
1010111100001011
10101100010100
1010101011100000
1010110001100110
1101110110010
10100010100011
10000000000111
1001011101010101
1011000000010000
1010110000001101
10101101110110
1010110001000101
10010100100011
1000111011000010
1010011111100100
1010010110010000
10110011110101
1010011000111110
1010110101110110
10101101000100
10100011101000
1010010000110101
10101010111111
10100101010000
1011000011101101
1010000001011110
10100000001010
1010000101010101
10000000111100
11000000011110
1110010101111
1010100011111100
1010110100110001
1010110100011001
1010101010001011
10111100110000
1110100110011
10111101101010
1010011000011110
1001110000101101
11000100010000
1010111100011100
1001110101000010
1010001100100110
1010111100011000
10111000101010
10010010001001
1011001001110010
1111111111110
10011101111011
1011000001111100
1010110101000111
10111000101001
10100011000011
10101100011110
10100000001101
10011100001010
10111100100011
10011100111010
1010010111100110
1111110111011
10110011010001
1010010101110001
1010011001110110
1010111110111011
10000110010101
10010011011001
10010001000001
1110000010101
1010100111111110
1011001001011100
1010110000011110
11000110001010
10001001010111
1011000010000101
1011000100001000
10010101111011
1010001000111011
1001110011010000
10010010001001
10011101100101
1110010111100
11000100111011
1010010111000010
1010111011001010
10101110110100
1010001111010000
1010111011100110
1010110101010101
1001110100011010
1010110011010110
1011000101000110
1010101111000011
1011000000110110
1011010110010111
11000001010111
10000101101001
11000100100011
11000000010111
10110001000110
1010011101000101
1001000001000010
1010000000101101
1011000011110111
1010110000000111
1010101010001110
10010111111111
1010011001100100
1010000110101110
1011000101101001
1011010000101001
11001101101100
1010111010101111
1010100100000110
1010011110000000
10100110100100
1011000011110010
11001101100000
1010111110000000
1010010011000000
10111010110100
1010110010001101
1010000100010001
1000111011110
10100000011010
1011010011010010
1010011111001110
10110001111000
10101000001101
1010100010110001
10101101010101
1010101010001010
1010110111011001
10100100111111
1010110010101000
10100110101011
1010110010111010
10001110000100
1010100101110011
10100001110000
10101000001001
1010101101001111
1001110101100000
1110011010101
10000101011001
11000111101001
1010011001010000
1001110000010110
1001110101110100
1010110101111111
1001100000000001
10010010111101
10100111010010
10000110010101
1010010100011111
1010011110101110
1001101011110000
10101011000110
1010110110000100
1010100000000001
1001111001101101
10110010010110
1010010010110100
11000010000010
10010110010001
1010001100100111
1011000111100000
1010000011000000
1010101010011111
1010100101011101
10111100010100
1011000001011111
1010101110110000
11010000010101
1010011011101001
1010100000011100
10100000010010
1010110010011100
10000110010010
1010010111001101
11000000100001
11001010100100
1010101111011110
1010010101101111
1010101011011101
1010101000010101
1010100101100111
10110000010100
10111100111110
1010011110001101
10001010001101
11010000101011
10010011010001
1011000001010001
1001010010110110
11010000110000
1010010110100011
10110001100001
1010101000111101
1111011000110
10100010010011
1011000011100000
1010110000011110
10111100001101
1001110001011011
1010111111100101
1010100001100000
10110110101010
1010010001010100
10111111010110
1011001101111010
1011001010011100
11001000100101
10110110101100
1011000011100111
1010100011000000
1011001110110010
1010101101110010
11001011101111
1010001001011010
1011000101011100
1011010001101011
10000011110100
10111101100111
1001101101011010
1010011010100001
1011000100110010
10111001011100
1011000101110100
1010110101101110
10100001011100
10100000000111
1010111001010100
1010110111001110
1010100111011001
1001111001000101
1010111010001000
1111000110011
1011000000011000
1010010110110010
10100100001110
10101010110001
1011001101010100
10011001100010
10101010001010
1010111010111001
1010110000000100
1010110000110101
1010110101110010
10101101110110
10010000111000
10011010101000
1011001001010000
1010100010110110
10001101100011
1010010000111111
1001000001011010
1010101100000000
10010111011010
10100010110000
10000101111000
1010110010111100
1010100101000110
10100000100001
1011000010101101
10101011011100
10011100011000
10111001010011
10101101111010
1010101000010101
1010101001100100
1001101100001011
1010110111111111
1010101011110010
10001100111011
1010011110000001
1010101000111001
1010000011000000
10110010000000
10000110110001
11000011100010
1010110101100001
10110100010011
1010010011101101
11000000000000
1010111111111000
10110010001011
1010110111111100
1010101001000001
1010110101101000
1011000000110001
1011000010000010
1010110101000111
10101010101010
1010101010001011
1010100000111000
1010111010001011
10100011001101
1010110111110101
1010011000011101
11001001111111
10110001101011
10101101101101
1011010001100011
1010010010101001
1010001011111111
10010010110000
10100010100000
10101001101101
1001111011001111
1011000001000111
10100011111011
10000010000000
10110000111001
1010101110001110
1011001000011110
1111110001111
11000111100000
1110100001010
1010011110101010
1011010010010010
10010010000010
1010101011001010
10011011111010
10101100001000
1010101001100001
1010100011011101
1011010010100011
1110010101001
10110100111011
1001000011011001
1010111100100011
10110100010010
1010110000111100
1011000100010010
1010101111000110
10100110001010
11000000100010
1010010000010100
1010110101110100
1011000010100011
1010101010001000
11001110011001
10100100111111
1010011000111101
1010011000111101
1010100100010001
10110011111101
10110101111111
10110001100111
111110000001
1011010101010011
11010011111001
111111100110
11000011001111
1010001101000011
1010010011110100
1011010001010111
1110101000100
10101110010101
10010110011110
1001101101100110
1010110101001000
1010110100101110
1010100110110001
10000110101001
10010001011101
1100110100011
1010011011101101
1010110000101111
1010010111010000
10101100111101
10000110001111
1010101001101110
1010000001100111
1010101111000101
1011000010111001
1010110111000000
1010011110111010
1010110001011111
11010000010110
10100011101000
10001111111110
10001010011110
1010010101111110
1010111101010011
11010001010111
1010110010001010
1011010001001111
1010011011110100
10100101011111
1011000100011011
10100100100010
1011000101100100
1010010011100001
10110000011011
10010001000011
1011010010010111
10101110001010
1011010111011100
10101010100000
1001001110101111
1011000000000101
1011001000101011
10010101001111
1011010110110011
10110011100001
10011011110111
10000100010101
1011001101101110
10011111110110
1010101000000000
1010101000001011
1010011010110010
10011110111001
1010010101001111
10111110110100
10100100010111
1010001111110101
11000001010101
1011000100000000
1011001010000111
1010111010110000
10101111110001
1011000010000100
1010110010001000
1011001010001011
10110011011101
1010110100101111
1010110010010001
1011110011010
10110011111011
1010010010110110
10100000110010
1011001000011111
1110001101110
1010110100101101
1010000110100000
1010111011101001
1010100010000101
10110000001010
10011100101001
1010011010011000
10111100011000
11000100110001
10110010111100
10111110100100
1010010010000001
10101001011001
1010000000001011
10110010110101
1010000010010011
1010110001110111
10111011011100
1011001010011010
10100110110111
1010110001101011
10101111111011
1010110000101010
10100110110111
1010110001000011
10111000111010
1011001010100111
1010110000101010
1010110001011101
11001101010100
1011001001101110
1011000011110110
1010110001010101
1001011011101101
1011000100101011
1010100110010111
1011000000011000
1011001000100
1010110111101100
10110001001001
11000110100001
10010100110010
10111110101101
1011001001011010
1010111101001000
1011001001101001
10101101000111
10110100111100
1010100000110111
11010100010010
1010110011111110
1010111011000101
1011000010110011
1010110100001000
10100111101010
1101001011010
10110111011111
11000010000111
11000000011101
1010100100010011
1010110001110101
10011010010101
1010110000000101
1010110100100110
1010011001011001
1011000100111010
1010100011010001
1010101001100111
1010101110001001
10110011100011
1010011101000001
1011000001010100
1010111010000011
1011000100000011
1111001011010
1010010001100001
10100111111111
1010100001111011
10110100110110
10111011010110
1001110111111000
10100000111110
1011001100001011
1010111110000111
1011010100001001
1111101000001
1011000010000111
1010011000111111
10011001100111
11000010001001
10111100000110
1010001011111111
10100101111100
10010110010100
1010110000010001
10100110111101
1010110111111101
10110001111011
1010110111110111
1010101100000110
1111111001111
10100001011001
1010101100001110
1011000101010001
1010110101001001
10100100100011
1010111100110101
10111001110011
10100110000000
10100101111100
1010101111110010
1010010111111011
1010110110110011
1010100100000010
11000010110101
1001101110110001
10010010010001
10010100111000
1010100111011000
1011000001111001
11000011100101
1011001010100100
1010111000101100
1011010111011001
1011010010110111
1110011010101
1010011001111100
1101011001000
1010110000001100
1010100101011011
11001100010010
10111001011101
1010110000100111
1011010000101001
10001111101101
1011010110010100
10011011101001
1011001000100001
1011000100000111
1010110011110010
1010010011011111
1010101101110101
1010101000001110
10101010001110
10011001110011
11000011010000
1010101001100010
1010110110001110
11010010011101
1010111100000001
1011001100101111
1011001001011110
1001100110101101
1010011000011001
1111001001101
10101110101111
1010011010110101
10110111101110
10011010111000
10000001001011
1010100010110100
10000011110111
1010011011101000
1010001111111110
1011001111001011
1010110100101010
10000010010001
1001111000011111
101100110011
11000011000110
1010001001100010
10101111101110
10010101001110
1010011110110111
1010010100011100
11000110101001
1010011010101000
10011100001100
1010111011101101
10101011101011
10101111100101
1010111101111101
1010100001011000
10101101010101
1010110110110111
1010101100011001
10100000110110
11001100100010
10000101100011
1010010000011001
1010110110110000
1010100010100100
10110010100101
10101111001001
1010010001001000
1010000011111000
1010010001100001
1010101001010001
1010101000000010
1010001001001101
11000100000101
1011010001100011
1010100010110001
1010010101011110
10110101010011
10101110101111
10000100001010
1001101010011111
1101101001011
1010110011110101
1010011100011100
10100010010000
10000011111010
1010111001100110
1010111100011100
10100101110001
1010101111111101
11000101111101
1011000010111100
1010111001010000
10100111010010
1010101001100111
1001101011101101
1010101011111010
10100100011000
1010110100010100
10010100100100
1010101010001000
10100000011100
1010110001011001
1010100100011000
1010110100100111
1010110010100011
1011000101101110
10011010110000
10010100001110
10101000011110
10111001011000
10100010001011
1010001011100110
1010111110101100
1010110100110000
1011000000011101
1010111100000110
1010101100100111
10101110110011
1011000011000100
1010100101011100
11000000111001
1010111111000101
10000011111100
11000000100111
11000110000011
1011000010101100
1011000100100111
1011001100111111
1010111010000100
1010110101110101
1011000001000100
1011101001101011
1010110101001101
1011000010100011
1011000010010000
1010110101010001
1010110000011011
1010110010000010
1010011000100011
1010101001101001
11001010010010
10001000101100
10001111111100
1010110100011011
1010011100101101
10001000110000
1010111000001001
10100000000000
1010100100101101
1001110110110110
1010110001000111
1010110000010001
1010010100001010
1010011110010011
1111111100111
1010001010110100
1010110001101111
10011001111100
1010010101110100
1010101111000011
1010101001100000
10011101100011
10100110101110
1010110100101111
1010110000110001
1010011101010000
1010100111010000
1010110011001100
1111010000010
1010010111010011
1010100001001001
1010110110000000
1010010101111100
1010001101111000
1010011010100110
10111100000010
1010100011011001
1010011010101011
1010111000100110
1010010011110101
10011100001010
1010010110000110
1010010100111110
1010100110000001
1010110001001010
1010110011000001
1010011010001010
1010101001111101
10110100000100
10100010011011
1010010000001100
11000111111110
1101001100001
1010110001011110
10110001100110
1010111110010011
1010011111111001
1010110000111101
1010111010011001
10101011101110
10100001111010
1010011111010011
1011010111010011
1010101010111000
10111011111010
10100010000001
1010001100011011
1010010000010010
1010010101111111
1110011101110
10101011010110
1010011111010101
1010110001000000
1010110000111000
1010110010001101
1011010110000111
1010111100001100
10001101111001
10101111001100
10110101001000
1010110011111100
1010011010111011
1010101011000001
1011001000000010
1010010100011010
1010110111101001
10011001001101
1010011110011001
11010010100110
1011000111100011
10100110101101
1010011011101101
1010110000100110
1011010000010100
1010001011110010
11000000000101
1010000100000011
1010001000110101
1010110100110100
11010111000011
10111000001100
10011111111110
1010000101011110
1010100000100011
11000111111111
10101101011011
1010110010100110
1010101101011111
1010111111111111
1010110000100000
10100010110010
10110111001000
1010101001111110
10000100000000
1011001011000111
1010000010001010
1010011101110010
10100111100110
10110000101010
10101011001001
10110100100100
10100010000011
10011001100001
10011100100001
10110101111010
1010101001010011
1111110011001
1110000100011
1010101100011011
1110011101001
1010111000110000
10011101110010
10010111010000
1010101010100001
1011001010000100
10010001001110
1010100111010010
1010110110100001
1100100010011
10011011100010
10110010001111
1010011110001110
1011000000101110
10110110101111
10011000100000
10011100100000
10111001100001
1010100010111000
1010110000000001
10110011110000
10000011010100
1010111000111010
1010010101011111
1010011011110000
1010110111100101
1011000000110001
10001001101110
1010010101111101
1010111011010100
11000001010100
10100111101101
10001110010111
1100110010011
10111110100100
10010101011100
1010010100100010
10111100101010
1011000101001001
10100000010100
10110000101100
1010001101110110
1011000111010110
10011101101100
10111000001111
1001010001011101
1010101011100000
1010101011000001
1010000001011100
1100111010101
10010011100011
1001110010101101
11000011010001
10010111101101
1010011100011110
10101101011100
1010110011110101
10101001010010
1010101001101000
1010110101110000
10100001000011
1010100100101011
10100101011001
1010010011010110
1000111111000111
10001100011000
1010110000001000
1010011101001001
10111010010110
1010101101010011
10101110010100
1010010000101001
10001011001010
1010110101010010
1010001111010000
10100100111101
10111100011101
1010100001010100
10111100000011
1111101011011
1000101000111100
10111010110101
1011101111010
1010100000011011
10100111101110
10111101110000
10100101010100
1010101000010111
1010000001001100
10101010001011
10100001111101
10110000001101
1010001001100011
10110111001010
1010100001000111
1010011111011010
10111001110111
10101111001101
10100000000100
10101001000010
10110110001101
10001010111000
10100110110010
10111000100010
10111011010100
10010010100000
1011000000011011
1010010011111010
1010011110111010
10100100111100
1001010100001101
10101001110010
1010011011100000
10110101000000
10001111110110
1010011010101010
10101100001101
1010010001101001
10100110000010
1010110111111100
1001011001101001
10000111111100
1010001100011001
10111011101001
1010101010011101
10100001001100
1001100111100110
1001111110111111
1111110010111
1010100000100011
1011001101011101
1001110100011111
1011010001110000
1010101110100111
11010000001001
1010010001000110
10011000000101
1010101000011011
10101011110111
1010110100011111
1010011001000011
11001011010001
1010100011000001
1010000111111111
1010110100110110
10011100101010
10101111011100
1010110001101100
1010111011110101
1011000001111000
10101001101100
1010110001011100
1010101001011011
1010110010111110
10101100001101
1010111100011000
10110100101100
1001110001010011
10010011010001
1011010001110011
1000101100111001
1010110000101000
11000010100110
10101010000001
11001110000100
1010110101010001
1010101100000110
10100001111110
10000000001000
1000011111111001
1010000111100100
1001100110111100
1010011111111101
10011101011010
1010010101001010
10110010010010
1010100101100100
1010011011111011
1010100001101011
10100000100010
10110000100010
1010110000100111
1101111111100
10010100001000
1000010000111010
1010100010001010
1010101000100100
10101011110001
10000000010101
1010101010010010
1010101100100111
1010000111001100
1010011111010010
1011001001110111
1010101110101001
11010000010110
10111101001000
11001010110010
10010010011100
10100001111010
10110011010000
1011000000011000
1011000111100111
1011001110111000
1011000100001001
1011000011011010
11001110111001
1011001011000100
11100001101001
1010110010011111
10001010111100
10110000100101
11000000001011
1010100000000001
11010110110001
1010110000110001
1010101001001111
1011000101011110
10100000010011
10101000011110
10001100111111
1010100011001101
1010100111100000
1011010100000010
11011100100011
10101011110100
1011001010011011
1011000000011100
10111001111000
11001000101101
10001110100111
1010111100100100
1010100011110100
10010010000010
1011010001101011
1010110101111100
10011001101101
1011000000100000
1010111001100101
1011000100010011
1001110000010010
1011000001010101
1010101100000001
11010010001001
1011001011001011
10111111011010
1010111110111101
1011001101110100
10001101110001
1010100000111110
10001001111001
1011001000110111
1010111011101010
1010110010010001
1011010010000010
1010110011010101
1010111011100100
1010110111110000
1010111001111011
1010110101110111
1010010110101101
1010100111001111
1010011101100111
10111000100010
10100101010110
1010101001001100
10100110011000
1101011110011
10110110010101
1010111010000101
1010010001111010
1010110101000101
1010010100010100
1010101100111101
10011100001101
1010110100010101
1010111110001
1010011000000010
1010000001100010
1010011000110111
10100101011010
11001111001001
10011101110011
10101111110111
1010001110000100
10101011001011
1101110100001
10101110110000
1010101100110001
10100010010110
1010001110101111
10000110010011
10111011000110
1010110011110010
1010110100001101
1010110000100100
1010101110010100
1010111011110001
1011010010110110
1011010000000101
1011000111000111
1010010100101100
1010111010011111
11001010101100
1010001011111111
1011000000010001
11000111000000
1001110000110110
10011011011111
1011001100011100
10010101111100
1010101110010001
1011010011100100
11011100000100
1010010001110101
10111011101101
1010100100101011
1010011011100001
11001011101101
1010111000001010
10001000011101
1010101011000111
10101011100001
1010010011010001
10111110010100
11001100100000
1010110111110100
11000101101011
1010110010100011
1011000001110010
10111101010100
10100000010011
10110011011101
1011001110000010
1010110100111011
1011000000001000
11000001001101
1010110101110110
1010100110110011
1010010110011001
10111000100100
10101110100101
1011010001101010
1010111010010100
1010111001010011
1110101111010
10000110101101
1010101101111101
1010011010011011
1010110010001100
10111101110010
1010111010011000
10101011000111
1010111001010010
1010011000100001
1010010000100110
1010110001001011
10010110111010
10011101100001
1010100111001111
1010110000011011
1010000110111100
1011010100101001
1011100101100
10100111001111
10011100100011
1010110100100100
1001111001100110
1111110001111
1010110111100010
1010000011111011
1010101010100110
10100011011111
10010001011010
10101101110101
10101000001011
10111010110110
1010001001101001
1010110100010000
1011000010100100
10010000001100
10110000000100
1010011000110110
1010010001010011
10000101000001
1010100001000010
1010010110010000
10000001111010
1000111001101100
1010110100000101
10100101011001
1010100001100111
1010111010001010
1010110011111110
1010000011101001
1010100100100101
1111010101100
10011110101001
1010110001101011
10110101001010
10011110001100
10110110110101
1010011110111000
1010110010001001
1001110011001100
10110100100110
10110000000011
1010101100000110
1010100110101111
1010101001010110
1010111110000101
1010011101100101
1010111011100000
10000001011101
10101111101111
10010010011110
10100000100110
1010111010110
1010010011110101
1010110000101101
1001110100011
1011001100101111
1010011010111001
1010100010111010
1010101011101001
1010100111011111
1010111111100101
1010110100001010
1010000111101010
1010101010011001
1010110010010010
10011010001111
1010001001000011
1010110111101110
10100010000111
1010000111000000
1010110100101100
1010100010101010
10010000101001
1010101010011100
1001110010010101
1010101110000101
10010011110111
1010101111111011
1010001100101011
11000000000000
1010110111101110
10010011101100
1010110000110011
101111000011
1001111110011001
1010011101111101
1010101011010101
1011010010101110
1011000010111101
1010111010000111
10110010011001
11000001100111
1010110101001001
10011011001100
1101011011000
11000111011000
1010111010111101
10110110000101
1011001100110100
10010001001110
1010110100110010
1001110101101111
1010111110000110
1010110111101010
1001101000111010
10101010100100
10111100100100
1011000110110111
1010110001000000
1010110111110011
1010100010001111
10101111111100
1010001111011000
1010100000111011
10111100000000
1010101101011101
1010111011010011
1010111000001111
1011000110100100
10010101110001
1010000100000001
10111010001001
1011000110101111
1010101010101011
1011010000011000
10101010111111
1011100101011110
10100100101001
1010110100011000
11000000000100
1011010001001111
10010000110001
10111101000110
1011000100001001
10101111010101
1010011111011111
1010111100100100
1011001010111101
1001101000010100
1011011001111101
1011000001011100
1010111111110011
11010110111010
1010101001110110
11001001001111
1010010111110100
1011010100100011
1010111000110100
1011010010110101
11000010110010
1010011111101010
1010110000100001
10011111010110
1011011001111101
1010110001010101
11010101100110
1010110100001111
10111010111100
10100001110100
1010101000111000
1010110000001000
10101100111000
10110110001010
10100111110001
1010110111010001
10001101110011
1010011111001010
1010010111001100
11001110010100
11010100000100
1001101010101110
10010111111000
10010110110011
10111010001101
1011010001000000
10100100011001
1010111001011110
1010110011101011
1010110111010011
11000011001100
10011111101101
1010100000011100
10100110100001
1010101001100010
1001110000010000
1010100010111110
10011010001011
1010011011111011
1011000011111101
10100001010100
1010101111010010
1010010101100000
1011000101011101
1010010101111110
10010011001000
1010100100111000
10100011000000
10110011001000
1010011001100010
1010001001101110
1001110100000111
1010011110100001
10101101000100
10011110110101
10010101010011
1010001111011000
10110000000100
10110001010110
1011000011010011
10011110110000
10011000111010
1010100100010001
1010110001111101
1010100000001000
10110111010001
10111001010101
1010100111001010
1010111010001010
1111010111011
1010110001111010
11000000011111
10011100010101
1010010101101110
11010100011001
10101000101111
1010110111111000
1011000110000011
10111000000000
1010110110111011
10000111100000
10001101111001
1010110000000100
1010111000011101
10100111111100
1011001010111010
11000001001000
1011000000101001
1010101110010111
1010011101000001
10111001100111
11010001101011
11011001101011
11001110110101
10101011000100
11011000001001
1010000011010100
1011001011111100
1010010000010011
10011011101110
11001000000100
11001011011101
10100000000100
1010000001111001
10010110110111
1010111101101111
1010110101110000
1011000000111111
1010101000011
1010110010010001
1010101101100101
10110001001011
10111001100001
11011010110
1010101010110111
1010101101110000
1011000001011100
10101100000011
11000011001010
10000100110111
10111000101101
1011010001110101
1010110110000111
1011000111001111
1010111100010111
10110000010111
1010110000010100
1011000101011111
1010000011101101
1011001010010001
11001001100000
1010111011100111
1010111011100000
1010100001101010
10101111001010
10100101110100
10100011000001
1010111101001000
1010100101111111
1001111100010100
1010100011000000
10110110010000
11000010011011
10111001111000
10101000111010
10110101110100
10100001010000
1011001111010111
1010001011100001
1010100010110110
1001001000011010
1010111101111010
10111101111001
1010110011111001
11000111000100
10100101001111
10100011011000
1010111110100011
10111101010001
11001000110100
1010111101100110
1010101001010101
1001010001111011
10101001101110
1010011111000000
10110001101010
1010101010101000
1010110001000110
1010110100110011
10000100001111
1010010000011001
101010101000
1010101101000001
1010000110011000
10110010110100
10010101001000
10111010110010
1010011010101001
1010110001101111
1010001100111111
1001010100011101
1001001011000011
10100111011000
1010100111010101
1001110111110110
1011000100000100
1010101101101111
10011101101111
10101001111010
1010010000100000
1010011000101100
1010110010101111
10110010100000
1010010000001110
1010110000111001
1101111000111
1011000010100010
1010011100111000
1110101000100
10110001110011
1010100010100100
1001111001101111
1010001110100100
10001111100100
1011001110100110
10101101011110
10010101011110
1100111011101
10001001010100
1111001000000
1111100100110
10111010011111
10100100000001
1010010111000010
1010100010111110
1001110110111000
1010010100101111
1010101011011011
1010000100001000
10101000110111
10101110010011
10111111010011
10000101110101
11000001010010
1010010011111011
1010100110011111
1001010100001110
10110101001100
10011000000010
1001110110101010
1010110000110010
10011101100010
10001011000100
11000110000110
1111010010110
1010010100000010
10100100110001
1011000010101001
1010010110000111
10011101111000
1110000101101
10111010010011
1001111100101101
1010101010101100
10110001110001
10110000100010
11000001011001
1010100010100100
1010100001001101
1010110001100100
1010110101101110
1011011011000111
10101010010101
1010111100110101
1010000000000101
10100001001011
10101010011010
1010001011001100
1011001010000100
1010110100000001
1010110101010111
1010110011000100
10111100000000
1010101000001011
1011000011111011
1011001101100101
11011010001001
10100000001001
1010010001000101
11000111000001
10011001110101
11010101101111
10001100110001
1010110011110100
1010010111010001
1011000100101000
10110001111000
10000001011001
10010101110111
10100000100110
10110001110111
10100010001101
10011010001110
10000001111010
10110001111010
10110111010010
10100111011101
1010111000000000
11010110111000
1010110001011101
1011000100011100
10110000011111
1010000100100010
1010100100101000
1010101001110111
1010010001010111
1010100100001111
1010111101100000
1010100110101101
1010000011010100
1010100101001100
1010100011101101
1001100100110010
1010010101011100
10100001110110
10101001000100
1010111001000101
1010100010010110
10100000011011
1011000000000100
1010011000101100
1010001001110111
10110010000000
10101011001001
1010110000010111
1010110101101001
10110010001100
10101010001011
10010000101101
1010000011010011
1010100001000100
1101011010101
11001010000011
1010010000110101
1011011000110110
10000110101101
11000101100001
1010101000111001
1010101011010100
10100111111010
10100000100001
10110011100111
1110001010000
1010101100000101
1010110110010010
1010100000101001
10100101111010
10100110111100
10110110101110
1011000110110100
10110101110100
10011101110000
1010011100111101
1010101101010100
1010101011100110
1011000010010000
1011000000011000
10111000000001
1010010011011100
1010010001110100
10010110101101
10000110011101
1010101011110010
1010110000110001
1010001011101101
1101001001100
1010101000110011
10101001111011
1110111001111
1010001000101111
1010100001010111
1011001110000011
1011001000100001
1011000111111110
1010101011011000
10011111101011
1010011111101010
1010011000011110
10101101100001
10101101011110
10000011010000
1010001000101011
1010100000011111
1010110111110011
1010110000111110
10110000100101
1010101100010101
10101001000010
1010011011000111
10101010000001
10111111100011
10110100101001
10011100010011
1010101001001011
1010100010000100
10110001100011
1001111101110100
10001110111000
1010011000101010
1010011011010
1011001000010010
10100110101100
1010010100111111
1011000111001010
10100000001011
10101000100110
10010001100101
1010101000000001
1010110011001110
1010101111001010
1010111101100110
1011000000001011
10111110000011
1010100010101111
10001001101000
1011001000001000
1010101111001101
1011000110011101
11000011011111
1010011001011011
1011000011001010
10110000101110
10111001100100
10100111011100
11000100110100
10111101101001
1011000011010010
1010010101000001
1010101100011100
1011000011110011
1010010111000110
10110010010111
1011010111101101
10000010011010
10111001000010
1010011110000100
1011000001000100
100010101011
1011010100010101
1001011110101100
1011010001011110
11001000011010
1011001000111010
10101000001101
10111101100010
1011000100000111
1010111111111111
1011001001001010
10100110100101
10110111010001
11000011011011
10011011010010
10101100110011
1010111000000001
1010110010001110
10110001011110
1010101100011111
1010011000000100
1110011010110
11001011101010
1010011111000011
1010101001001111
11000010110000
1010101100111000
10110111111110
1010000011011100
1010001111011000
1010000010010000
1010101010101001
1011000011101000
1010110011111011
11000000010100
10010001111000
1011000000110000
10111111111101
10100110110010
1010111100000111
10001100011011
1010100100010101
1010111001100001
11000010100100
10100110001101
1010110100001101
1011000001100010
10110001110101
10110010110101
10010100111111
1010000111110000
10011001011001
1010011011011111
10010101101110
1010000111001111
1011000000111011
1110001001010
1011000100000110
1011010101100110
10011101011001
1010010000111100
1011001101000010
1011000100010000
10101111101101
1010011110000111
11001001011110
10000110011000
1001101110111010
1010111100101000
1010101101111010
10110111001111
1011000011010111
1010011111101
11000100110101
10110010011110
1010110001101001
1010000000001110
1011000010010110
10111111010110
1010001111110010
1011000010100000
10111001111001
10000011001001
1010110100100001
1011000001000001
10110010010111
1010110111000000
1011000000111011
10110010101001
1010101010011101
1010100011111000
1010111000110001
10101100011011
11010011010010
10101100100010
10101011010000
1010100110100110
10100110000101
10011010011010
10001110011111
11000010001010
1010110110110001
1010101011010110
1010001000110100
11000111100010
10101010011100
10111001000101
1010100101111001
10010001011110
10111100101101
1010101101110110
10011011011100
1011000110010101
1010101000011110
10111010101110
10100011000001
10111000010100
10000100101000
10100001011100
1110000000011
10110000011110
1010100110010101
1010011100000010
1010010100010000
10101101001111
1010110011111010
1010100001000010
1010111110011100
1010111101000100
10010110100011
1010111001010100
1010001111101000
1010101111000111
1010010100101101
1011001011011001
1010111000111110
1010011001001011
1010110110011111
1010110001011111
1010110001010001
10000100110001
10100100100101
1010111011001000
10101010010110
10000111000010
1010011001100010
1010101101010101
1010011000000100
11000001100001
1010001101001110
1010100100111101
1000101110010
1010010000100001
10000101100010
1010010100101001
1010011110110000
10100110110110
1010000101111001
10001100000001
1010010001100011
1010000110100100
11000010111010
10011100110100
1110011010100
10011000000110
1010111111011010
1010101100111100
1010100101000010
10001000111001
1001111010011001
1010011010110001
10111100100100
1010100100010011
1010101000011011
1010010101000100
10001111000001
1010011100100111
1010011011011100
1010011100101011
1010011101101111
10010010011111
1001111100000011
1010001001011011
1010101001111010
1000101001001011
1010011110100101
10101011010111
10000100010
1010110000000010
1010100001101101
10100110100101
1010100110011110
1001111100110000
10100011100011
1011000100000001
1010100011100001
1010110111101010
10101001100111
1001111001110111
10101111001101
1010110000001010
1010011111001010
10100101010101
1011000001100
1010101101110100
10010010000101
10001101000101
1010111011101001
1010111011011100
1010101111110101
1010111110110101
1010010101011001
1010010101100100
1001111010010010
10100101001101
1011000011010010
11000100011011
10011011100001
1010010110001100
1010111101010010
1010010110001100
10011100101110
1010000000001000
1010111101100110
1010100101011101
1010100100110011
10101001001101
11000111110001
1010110000100000
1010111010001001
1010011011110110
10111011001010
10011110001110
1010101110000101
10111100000110
1010101011011001
10111111100100
1001110101011010
10100001010101
1010111011110101
1010011000011011
10100000001
1010110101010111
10100010111001
11001100000101
10110110001010
1010000111111000
10001111011110
1010100010011101
1010111111000000
1010101110101001
1010001010010011
10100110111001
1010101100111110
1011010110101111
1010010010001011
1010100101111
10110001000011
1010111011110100
1010110111000001
10000011101011
1010000110101111
1010100001101000
10001111010001
1010110010100101
1010011110001011
10001100101010
1010111011011000
10000110000001
1010110111000101
1010111010000
1010100011111001
10010110110100
1010101100100
1011000010110010
1010010000111001
10010101111001
1010000101010001
10111011001101
1010011000110010
10110001100101
10011111100001
10010010101001
1011000100101100
1010111010010110
1000111101011
1010100000011001
10010100111010
1010100000101100
1010111011000100
10111110001110
10010101111011
1010010011100011
1010101111000001
1010000101001100
10010001111010
1001111000111000
1010110111111010
1010110001111010
1010000010011110
10100110001000
1010100101011011
10001011001000
10101100101011
1010010000001111
1010010110000010
1010000100111111
10101110111001
1001011101111111
10001101001100
1010110000110001
1010100111110110
10100010001111
10100111101000
1010111000001100
1010111110000010
1010010001100010
11000111010110
1010100111101101
1010110010111011
10110001000100
10011010110110
1010110100101000
1010011111011110
10110100001110
10011101101110
1010101011000000
1011000000111111
1010110100010101
1010100111011001
11000010011111
1010101011111010
1011000101000100
1010100011011010
1011010001000011
1010101010000110
1010101111101001
1011010111010010
1010110000011010
10001011101010
1010011011110001
1010000010010110
1010011001101110
